const unsigned char model[] = {0x1c,0x0,0x0,0x0,0x54,0x46,0x4c,0x33,0x14,0x0,0x20,0x0,0x1c,0x0,0x18,0x0,0x14,0x0,0x10,0x0,0xc,0x0,0x0,0x0,0x8,0x0,0x4,0x0,0x14,0x0,0x0,0x0,0x1c,0x0,0x0,0x0,0x98,0x0,0x0,0x0,0xf0,0x0,0x0,0x0,0xd4,0x8,0x0,0x0,0xe4,0x8,0x0,0x0,0xac,0x10,0x0,0x0,0x3,0x0,0x0,0x0,0x1,0x0,0x0,0x0,0x10,0x0,0x0,0x0,0x0,0x0,0xa,0x0,0x10,0x0,0xc,0x0,0x8,0x0,0x4,0x0,0xa,0x0,0x0,0x0,0xc,0x0,0x0,0x0,0x1c,0x0,0x0,0x0,0x3c,0x0,0x0,0x0,0xf,0x0,0x0,0x0,0x73,0x65,0x72,0x76,0x69,0x6e,0x67,0x5f,0x64,0x65,0x66,0x61,0x75,0x6c,0x74,0x0,0x1,0x0,0x0,0x0,0x4,0x0,0x0,0x0,0x90,0xff,0xff,0xff,0x10,0x0,0x0,0x0,0x4,0x0,0x0,0x0,0x8,0x0,0x0,0x0,0x6f,0x75,0x74,0x70,0x75,0x74,0x5f,0x30,0x0,0x0,0x0,0x0,0x1,0x0,0x0,0x0,0x4,0x0,0x0,0x0,0xf6,0xf6,0xff,0xff,0x4,0x0,0x0,0x0,0xf,0x0,0x0,0x0,0x6b,0x65,0x72,0x61,0x73,0x5f,0x74,0x65,0x6e,0x73,0x6f,0x72,0x5f,0x31,0x35,0x0,0x2,0x0,0x0,0x0,0x34,0x0,0x0,0x0,0x4,0x0,0x0,0x0,0xdc,0xff,0xff,0xff,0x13,0x0,0x0,0x0,0x4,0x0,0x0,0x0,0x13,0x0,0x0,0x0,0x43,0x4f,0x4e,0x56,0x45,0x52,0x53,0x49,0x4f,0x4e,0x5f,0x4d,0x45,0x54,0x41,0x44,0x41,0x54,0x41,0x0,0x8,0x0,0xc,0x0,0x8,0x0,0x4,0x0,0x8,0x0,0x0,0x0,0x12,0x0,0x0,0x0,0x4,0x0,0x0,0x0,0x13,0x0,0x0,0x0,0x6d,0x69,0x6e,0x5f,0x72,0x75,0x6e,0x74,0x69,0x6d,0x65,0x5f,0x76,0x65,0x72,0x73,0x69,0x6f,0x6e,0x0,0x14,0x0,0x0,0x0,0xe0,0x7,0x0,0x0,0xd8,0x7,0x0,0x0,0xc8,0x4,0x0,0x0,0xb8,0x1,0x0,0x0,0x68,0x1,0x0,0x0,0x28,0x1,0x0,0x0,0x14,0x1,0x0,0x0,0x0,0x1,0x0,0x0,0xf8,0x0,0x0,0x0,0xe4,0x0,0x0,0x0,0xcc,0x0,0x0,0x0,0xc4,0x0,0x0,0x0,0xbc,0x0,0x0,0x0,0xb4,0x0,0x0,0x0,0xac,0x0,0x0,0x0,0xa4,0x0,0x0,0x0,0x9c,0x0,0x0,0x0,0x94,0x0,0x0,0x0,0x74,0x0,0x0,0x0,0x4,0x0,0x0,0x0,0xc2,0xf7,0xff,0xff,0x4,0x0,0x0,0x0,0x60,0x0,0x0,0x0,0xc,0x0,0x0,0x0,0x8,0x0,0xe,0x0,0x8,0x0,0x4,0x0,0x8,0x0,0x0,0x0,0x10,0x0,0x0,0x0,0x28,0x0,0x0,0x0,0x0,0x0,0x6,0x0,0x8,0x0,0x4,0x0,0x6,0x0,0x0,0x0,0x4,0x0,0x0,0x0,0x1,0x0,0x0,0x0,0xea,0x3,0x0,0x0,0xc,0x0,0x18,0x0,0x14,0x0,0x10,0x0,0xc,0x0,0x4,0x0,0xc,0x0,0x0,0x0,0x82,0xcf,0x69,0x80,0x7e,0xa,0x89,0x81,0x2,0x0,0x0,0x0,0x2,0x0,0x0,0x0,0x4,0x0,0x0,0x0,0x6,0x0,0x0,0x0,0x32,0x2e,0x31,0x39,0x2e,0x30,0x0,0x0,0x2e,0xf8,0xff,0xff,0x4,0x0,0x0,0x0,0x10,0x0,0x0,0x0,0x31,0x2e,0x31,0x31,0x2e,0x30,0x0,0x0,0x0,0x0,0x0,0x0,0x0,0x0,0x0,0x0,0x54,0xf1,0xff,0xff,0x58,0xf1,0xff,0xff,0x5c,0xf1,0xff,0xff,0x60,0xf1,0xff,0xff,0x64,0xf1,0xff,0xff,0x68,0xf1,0xff,0xff,0x6c,0xf1,0xff,0xff,0x66,0xf8,0xff,0xff,0x4,0x0,0x0,0x0,0x8,0x0,0x0,0x0,0xff,0xff,0xff,0xff,0x10,0x0,0x0,0x0,0x7a,0xf8,0xff,0xff,0x4,0x0,0x0,0x0,0x4,0x0,0x0,0x0,0x10,0x0,0x0,0x0,0x94,0xf1,0xff,0xff,0x8e,0xf8,0xff,0xff,0x4,0x0,0x0,0x0,0x4,0x0,0x0,0x0,0x0,0x0,0x0,0x0,0x9e,0xf8,0xff,0xff,0x4,0x0,0x0,0x0,0x4,0x0,0x0,0x0,0x1,0x0,0x0,0x0,0xae,0xf8,0xff,0xff,0x4,0x0,0x0,0x0,0x30,0x0,0x0,0x0,0x9e,0xc0,0x60,0xbd,0x81,0x93,0x87,0xbd,0x24,0x25,0x5f,0xbd,0x99,0x28,0x62,0xbd,0xa1,0xb,0x6a,0xbd,0x12,0xa6,0x61,0xbd,0x29,0x85,0x2b,0xbd,0xec,0x6a,0x33,0xbd,0x2f,0xd5,0xf0,0xbc,0x61,0x16,0x76,0xbd,0x17,0xcd,0x61,0xbd,0x15,0xcd,0x80,0xbd,0xea,0xf8,0xff,0xff,0x4,0x0,0x0,0x0,0x40,0x0,0x0,0x0,0xf0,0xe8,0xec,0x3b,0x23,0x4b,0x6f,0x3c,0x5,0xf7,0x85,0xbd,0x3a,0x49,0xe4,0x3b,0x58,0x6,0xb8,0x3b,0xcc,0x1c,0x4d,0x3b,0xae,0xe7,0x49,0x3d,0xd2,0x38,0x89,0xbd,0x64,0x4c,0x64,0xbd,0x1,0xe8,0xa9,0xbb,0x5e,0xed,0x56,0xbd,0x4c,0xa0,0x89,0x3d,0xcc,0x85,0x93,0xbb,0xa3,0xea,0xe0,0xbc,0xcf,0x26,0xd,0xbd,0x95,0x4b,0x81,0x3d,0x36,0xf9,0xff,0xff,0x4,0x0,0x0,0x0,0x0,0x3,0x0,0x0,0xcd,0xdf,0x8c,0xbe,0x4e,0x73,0xc3,0x3e,0xb,0x2f,0xb3,0xbe,0x4,0x6e,0xfc,0x3e,0xef,0x70,0xc2,0xbe,0xf,0xa2,0xdc,0xbd,0x77,0xce,0x12,0xbe,0xbf,0xc5,0x7e,0x3e,0xf4,0x20,0xe1,0x3d,0xb8,0x65,0x4a,0xbc,0x50,0x3e,0x83,0x3e,0xac,0x2c,0xeb,0xbd,0x8a,0x31,0xb8,0x3b,0x71,0xd1,0xba,0xbe,0x53,0xc2,0x95,0x3e,0x26,0x9c,0xdc,0xbd,0x2a,0xc2,0x7b,0xbe,0xb8,0xa5,0x9f,0xbe,0xed,0x5,0xba,0xbb,0x67,0x4a,0xde,0x3d,0xe9,0xf3,0x73,0xbe,0x20,0xe8,0xc6,0xbe,0x63,0x62,0xed,0xbe,0xf3,0xd8,0x93,0xbd,0x82,0xc2,0x9a,0xbe,0x16,0xe8,0xba,0x3e,0xe2,0x6b,0xf,0xbe,0xe1,0xff,0x55,0x3e,0x2c,0x2f,0x36,0x3e,0xfc,0x3e,0xbd,0x3e,0xdf,0xae,0xda,0xbd,0x1a,0xb7,0xae,0x3e,0xbc,0xc4,0xa7,0xbe,0x19,0xf9,0x81,0x3d,0x40,0x99,0xba,0x3e,0xb9,0x16,0x6,0xbe,0xc1,0xd0,0x11,0x3d,0xab,0x5b,0x93,0x3e,0x79,0x4a,0xd5,0xbd,0xb4,0x3e,0x5c,0xbe,0x3b,0x20,0xb5,0xbe,0xb,0x1c,0x91,0xbe,0xed,0xd6,0x8f,0x3e,0x40,0x2,0xf,0x3d,0xd2,0x40,0xe1,0x3d,0xf5,0x65,0xb8,0xbe,0x60,0xc2,0xc5,0xbe,0x3f,0xa4,0xc5,0x3e,0x2e,0xab,0x6,0xbe,0xda,0xd6,0xd1,0x3e,0x6a,0xcd,0xbd,0xbe,0xd0,0x2e,0x48,0x3c,0xbe,0x37,0x98,0xbe,0x7c,0x7d,0xe,0xbe,0x36,0x84,0xbc,0x3d,0xcf,0xb,0x18,0x3e,0x2a,0x41,0xcf,0xbe,0x78,0xa8,0xa3,0x3e,0x79,0x66,0xe8,0x3d,0x52,0x92,0xf4,0xbe,0xe1,0xb1,0xc4,0xbd,0xd3,0xc9,0x79,0x3e,0x51,0xd0,0xc0,0xbd,0x45,0x72,0xb3,0xbe,0xa2,0x6,0xcc,0x3e,0x6c,0x75,0x27,0xbe,0x2b,0x27,0x80,0xbe,0x23,0xa0,0x7,0xbe,0x75,0x32,0xb2,0xbe,0x9f,0x19,0xb5,0x3e,0x28,0xed,0x62,0x3d,0xfe,0x15,0x50,0x3e,0xce,0x8b,0xe2,0x3d,0x92,0x1a,0xf1,0x3d,0xba,0x2f,0xd1,0xbe,0x46,0x11,0xb6,0xbe,0xc7,0xd2,0xbb,0xbd,0x21,0xf0,0xbf,0x3e,0xea,0x51,0x17,0xbc,0x53,0x6f,0xa1,0xbe,0xb9,0xd9,0x5,0x3d,0xce,0xe6,0xa8,0x3e,0xf1,0x3b,0x29,0x3e,0x3d,0x94,0xef,0xbd,0x6,0x66,0x7,0xbe,0x47,0xe7,0x85,0x3d,0x8,0xd1,0x2a,0xbe,0xa3,0x92,0xd5,0xbe,0xd7,0x28,0x95,0xbe,0x3d,0xbc,0xc3,0xbe,0xf7,0x2,0x4d,0xbc,0x23,0xc2,0xd3,0xbd,0x72,0xd7,0x58,0xbe,0x72,0xd2,0x4e,0x3e,0x1f,0x69,0xcd,0x3e,0xe0,0x62,0x51,0xbe,0x9f,0x3b,0x86,0xbe,0xd2,0xc3,0x6d,0xbe,0x9e,0x7b,0x21,0xbe,0x47,0xcb,0xc0,0x3e,0x3a,0xf1,0x4,0xbd,0x9b,0x78,0xa0,0xbe,0x1d,0x22,0xa4,0xbe,0xf4,0x76,0xd0,0xbc,0xb5,0xab,0x2b,0xbe,0xb7,0xca,0x8c,0xbd,0xd4,0x39,0x9e,0xbe,0x4f,0x93,0xb3,0xbc,0xcb,0x35,0xe2,0x3d,0x57,0xc9,0x19,0xbe,0x71,0x67,0x94,0xbe,0xfc,0xe8,0xe1,0x3c,0xed,0x5c,0x5b,0x3e,0xd9,0x3,0x3c,0x3e,0xba,0x33,0xe8,0xbd,0x79,0x8f,0xf4,0xbe,0x5a,0x42,0xd1,0x3e,0xd2,0xef,0x6a,0x3e,0x5d,0xf5,0x3d,0xbe,0x2b,0x3e,0x31,0x3e,0x1d,0x13,0xf9,0x3d,0xc2,0xb5,0xbd,0xbe,0xd8,0x1e,0x84,0xbe,0x11,0xfa,0x54,0x3e,0xdf,0x30,0xb0,0x3d,0x52,0xcf,0xda,0x3e,0xd9,0x80,0xc0,0x3d,0xca,0x92,0x6d,0xbc,0x6c,0x92,0xad,0x3e,0x68,0xdc,0xc8,0x3c,0x92,0x5b,0x89,0x3e,0xce,0xc1,0x87,0x3e,0xe5,0xdb,0x43,0x3d,0xb3,0xb0,0x0,0x3e,0xb1,0x46,0x82,0xbe,0xd1,0x3c,0x80,0x3e,0x4c,0x2c,0x23,0xbc,0x85,0xe9,0xcb,0x3d,0x2b,0x25,0x30,0x3e,0x7b,0x50,0x63,0xbe,0x9f,0xde,0x51,0xbe,0x60,0xb1,0xa5,0xbe,0x51,0x99,0x95,0xbe,0x49,0x8f,0x65,0xbe,0x5,0xfa,0xa0,0xbe,0x6,0x6e,0xb,0x3e,0x3b,0xae,0x28,0xbe,0xd,0xe7,0xaa,0x3e,0xe8,0xf,0xb,0x3e,0xf5,0xb3,0x4a,0xbe,0xc8,0x62,0xde,0x3d,0xd1,0x2e,0x8b,0xbd,0x45,0xf1,0x84,0x3e,0xa4,0x7c,0xa3,0xbe,0x1c,0x7f,0xe5,0x3e,0x5e,0x11,0x43,0xbe,0xe3,0xac,0x82,0xbd,0xa2,0xaa,0xc2,0xbe,0x7e,0xee,0x2d,0xbe,0x68,0xc2,0x1,0xbf,0x89,0x9f,0x82,0x3d,0x5a,0x7f,0xd4,0x3e,0xc2,0x24,0xab,0xbd,0x6,0x7f,0xc0,0xbe,0xb3,0xe,0x82,0xbe,0xa0,0x27,0x3e,0x3e,0x13,0xc2,0x8,0x3e,0x85,0x92,0x82,0xbe,0x90,0x74,0xf9,0xbd,0x6c,0x6e,0xc2,0xbe,0x49,0x39,0xf5,0x3e,0x1d,0xcd,0x26,0x3e,0x9a,0x12,0x56,0xbe,0xec,0xdf,0x5e,0xbe,0x46,0xf1,0x5,0x3f,0x19,0x83,0x2,0x3e,0x9a,0xd8,0x23,0xbb,0x15,0xdb,0xb1,0xbe,0x68,0x5,0xcb,0x3c,0x9,0x98,0x54,0xbe,0xec,0x31,0x8c,0x3c,0xa8,0xc0,0xd5,0x3d,0xec,0xe2,0xb8,0x3e,0x34,0x1f,0x10,0xbe,0xb2,0x6e,0x5,0xbe,0x3,0x78,0x9c,0x3e,0xee,0x27,0x65,0x3e,0xa7,0x8b,0x43,0xbe,0x95,0xd5,0x22,0xbe,0xd2,0x30,0x3d,0xbd,0xd,0x86,0xc7,0x3d,0x56,0x8f,0x1c,0xbd,0x42,0xfc,0xff,0xff,0x4,0x0,0x0,0x0,0x0,0x3,0x0,0x0,0x77,0x87,0x1d,0x3e,0x30,0x24,0xe7,0xbd,0xe,0x22,0x43,0xbe,0xc3,0x4d,0xaa,0x3e,0x1e,0x76,0x96,0x3d,0x8f,0xeb,0xaf,0x3e,0x23,0x66,0xa3,0xbe,0x88,0xdf,0xd6,0xbd,0x7d,0x57,0xe0,0x3d,0x68,0xa8,0x7d,0xbe,0x3c,0xa7,0x98,0xbe,0xe5,0x63,0x1f,0x3e,0xb,0x96,0x1a,0xbe,0xc,0x2e,0x9d,0xbc,0xca,0xec,0xaf,0xbe,0x3c,0x19,0xb2,0xbe,0xc6,0x8f,0xbd,0x3d,0xfb,0xf8,0x4f,0x3e,0x1e,0x74,0xa9,0xbe,0xb0,0xfc,0xda,0x3e,0xa6,0x30,0x9a,0xbe,0x27,0x43,0xac,0xbe,0x6a,0x48,0xe3,0xbc,0x95,0x2f,0xb7,0x3d,0x7f,0x8f,0x6b,0xbe,0x19,0x9d,0xa2,0x3e,0x2c,0xef,0x1c,0xbd,0x55,0xb7,0x8b,0xbd,0x72,0x62,0x5a,0xbe,0x80,0xb,0x24,0x3d,0x16,0xee,0xce,0xbe,0x46,0xe2,0xd7,0x3c,0x1e,0xb2,0xe1,0x3d,0xac,0x6,0xb3,0x3e,0xef,0x1,0xbc,0x3e,0x31,0x31,0xa3,0x3e,0xb3,0x6c,0xbe,0xbe,0x56,0x6f,0xf2,0xbd,0x97,0xf2,0xfe,0x3d,0xca,0x51,0xdd,0x3e,0x98,0x2f,0xa6,0x3e,0x66,0x79,0x98,0x3e,0xef,0x94,0x92,0xbe,0xc5,0xb3,0xb7,0xbe,0x89,0x89,0xd4,0x3e,0xda,0xfa,0xf1,0xbd,0xb6,0xf5,0xe1,0xbe,0xef,0x26,0x3d,0xbe,0xf3,0x18,0xbf,0xbd,0xa8,0xff,0xc7,0xbc,0xc3,0x31,0xc6,0x3e,0x97,0x82,0x99,0xbe,0xc0,0xbc,0xa4,0xbe,0x7,0x60,0x41,0xbd,0x1b,0x52,0x8e,0xbe,0x1c,0xe9,0xb8,0x3e,0x31,0x1a,0x1b,0x3e,0x16,0xb8,0x40,0x3e,0x1,0x5e,0xde,0xbe,0x9e,0x4e,0x75,0x3d,0x6d,0x9b,0xf3,0xbe,0x6f,0xd3,0x9d,0xbd,0xd2,0xb,0xbb,0x3e,0x76,0x85,0x1b,0x3e,0xc,0xe6,0x13,0xbe,0xfb,0x69,0xac,0xbe,0xcb,0x43,0xce,0x3e,0xa3,0x90,0xc8,0xbe,0x68,0x99,0xde,0xbe,0xdd,0x4,0xf2,0xbd,0x45,0x8,0x22,0x3e,0x8a,0x8e,0x3f,0x3d,0xfb,0x27,0xbd,0xbe,0x51,0xe9,0xc,0xbe,0x32,0xcd,0x9e,0xbe,0xf1,0xc,0xbb,0x3e,0x8f,0xe7,0x10,0x3e,0x93,0xf9,0x98,0x3e,0x1d,0xdc,0x40,0x3d,0xd6,0x93,0x3a,0xbe,0x73,0x3c,0x8e,0xbe,0x9a,0xf2,0xa5,0xbe,0x7,0x8,0x90,0xbe,0xe8,0x6e,0xdb,0x3e,0xc7,0xb4,0x20,0x3e,0x6b,0xc7,0x3f,0xbe,0x80,0xdc,0x3a,0x3d,0x47,0x97,0xbb,0x3e,0x3e,0xd6,0x7e,0x3d,0x4a,0xc,0x90,0x3e,0x70,0xec,0x72,0xbe,0x77,0x41,0x96,0xbd,0x5b,0x78,0x1e,0xbe,0xb0,0x46,0x45,0x3e,0x64,0x49,0x4e,0xbc,0x2c,0x1c,0xc3,0xbd,0xb4,0x8,0x98,0x3e,0x67,0x10,0xab,0x3e,0x1c,0x3,0xf,0xbd,0xb0,0x3f,0xfa,0x3d,0xec,0xa6,0xad,0xbd,0xa2,0x15,0x91,0xbe,0xfc,0x72,0xc,0x3e,0xcb,0x4c,0xc,0x3e,0x3f,0x27,0x28,0xbd,0xad,0xdd,0xde,0xbd,0xe1,0x88,0xa9,0x3e,0x4b,0x16,0x59,0xbd,0x49,0xb3,0x3a,0xbc,0xac,0x9e,0x9a,0xbe,0x76,0xb0,0x0,0xbf,0xde,0xd6,0xba,0x3e,0x0,0x81,0x9,0x3e,0x8d,0xd6,0x8f,0xbe,0x67,0xb9,0x13,0xbe,0x83,0x30,0xc7,0x3d,0x84,0x73,0x51,0xbe,0xff,0xfa,0xe5,0x3b,0xbd,0x9,0xba,0x3e,0x8a,0xf4,0x49,0xbd,0x52,0xa2,0xd0,0xbe,0x9c,0x9f,0xb9,0xbe,0x94,0x94,0x86,0x3e,0x68,0x36,0xb1,0x3e,0x1d,0x69,0x95,0x3e,0xff,0x46,0xe1,0xbe,0x44,0x5a,0x59,0x3d,0xbf,0x6,0x86,0x3e,0x35,0xe8,0x8b,0x3e,0x67,0x29,0xb3,0x3e,0x2b,0x29,0xaa,0x3c,0xd0,0x79,0xbb,0xbd,0xc8,0x53,0xa7,0xbe,0xd7,0x27,0xb5,0x3e,0x3e,0x6,0xa2,0xbe,0x1b,0xc6,0x6d,0xbd,0x8d,0x2,0xfc,0xbd,0xfe,0xa,0xc7,0xbe,0x2e,0xc7,0x9f,0xbe,0x68,0xae,0x99,0xbb,0xa,0xc0,0x36,0xbe,0x57,0xfa,0x64,0x3e,0xac,0x5b,0xfe,0x3e,0xe9,0xb6,0xa4,0xbe,0x40,0x6a,0x95,0xbe,0xd3,0x57,0xe0,0x3e,0x3a,0x35,0xdc,0x3e,0x6c,0x18,0xc2,0xbe,0xea,0xde,0xf8,0xbd,0x9,0x85,0x4c,0xbe,0x40,0x57,0x54,0x3e,0xed,0xb7,0xa3,0xbe,0x30,0xa4,0xb4,0xbd,0x66,0x31,0xb7,0x3d,0x4b,0x4,0x64,0xbe,0x43,0x44,0xbb,0x3e,0xa7,0xf7,0x89,0x3e,0xfa,0x1c,0x34,0x3e,0xde,0xdd,0xce,0x3d,0x1e,0xed,0x29,0xbe,0xd0,0x2c,0xf0,0x3e,0xfd,0xf4,0x8e,0xbd,0x2e,0xeb,0xbe,0x3d,0xa2,0x1b,0x9b,0xbd,0x40,0xbe,0xb5,0x3e,0xd3,0x62,0xc9,0xbd,0xa7,0xe5,0xa6,0xbd,0xb9,0x56,0xfb,0x3d,0x8c,0x54,0x18,0xbd,0x86,0xa9,0x98,0xbe,0x52,0x9f,0x66,0xbe,0x56,0xa1,0xe2,0x3d,0xd6,0x8e,0x4d,0x3d,0x32,0x40,0x18,0xbd,0xe2,0x6a,0xa7,0x3e,0x69,0x62,0xaf,0x3e,0xcb,0xdf,0x38,0xbd,0xce,0x36,0x20,0x3e,0xf3,0x4d,0xb6,0x3e,0x5b,0x88,0xca,0x3d,0x8b,0x1e,0x8,0xbe,0xe9,0x7e,0x9f,0xbe,0x92,0xcd,0xb2,0xbe,0x3,0x2,0x94,0xbe,0x7f,0xf8,0xbd,0xbe,0x23,0x7b,0xa,0xbe,0x3b,0x19,0xb3,0xbe,0xf1,0xf,0x17,0x3e,0x7,0xd2,0x3a,0xbd,0xae,0xed,0xaf,0xbe,0xa8,0xaf,0x2a,0x3e,0x69,0xb9,0x95,0xbe,0x58,0xf8,0xff,0xff,0x5c,0xf8,0xff,0xff,0xf,0x0,0x0,0x0,0x4d,0x4c,0x49,0x52,0x20,0x43,0x6f,0x6e,0x76,0x65,0x72,0x74,0x65,0x64,0x2e,0x0,0x1,0x0,0x0,0x0,0x14,0x0,0x0,0x0,0x0,0x0,0xe,0x0,0x18,0x0,0x14,0x0,0x10,0x0,0xc,0x0,0x8,0x0,0x4,0x0,0xe,0x0,0x0,0x0,0x14,0x0,0x0,0x0,0x1c,0x0,0x0,0x0,0xc4,0x1,0x0,0x0,0xc8,0x1,0x0,0x0,0xcc,0x1,0x0,0x0,0x4,0x0,0x0,0x0,0x6d,0x61,0x69,0x6e,0x0,0x0,0x0,0x0,0x7,0x0,0x0,0x0,0x88,0x1,0x0,0x0,0x38,0x1,0x0,0x0,0xf0,0x0,0x0,0x0,0xbc,0x0,0x0,0x0,0x6c,0x0,0x0,0x0,0x28,0x0,0x0,0x0,0x4,0x0,0x0,0x0,0x9e,0xfe,0xff,0xff,0x8,0x0,0x0,0x0,0xc,0x0,0x0,0x0,0x1,0x0,0x0,0x0,0x10,0x0,0x0,0x0,0x2,0x0,0x0,0x0,0xc,0x0,0x0,0x0,0xf,0x0,0x0,0x0,0xe,0xff,0xff,0xff,0x1c,0x0,0x0,0x0,0x0,0x0,0x0,0x3b,0x1c,0x0,0x0,0x0,0x20,0x0,0x0,0x0,0x4,0x0,0x0,0x0,0x0,0x0,0x6,0x0,0x8,0x0,0x4,0x0,0x6,0x0,0x0,0x0,0x3,0x0,0x0,0x0,0x1,0x0,0x0,0x0,0xf,0x0,0x0,0x0,0x3,0x0,0x0,0x0,0xe,0x0,0x0,0x0,0x8,0x0,0x0,0x0,0x7,0x0,0x0,0x0,0x4e,0xff,0xff,0xff,0x24,0x0,0x0,0x0,0x0,0x0,0x0,0x20,0x24,0x0,0x0,0x0,0x28,0x0,0x0,0x0,0x3,0x0,0x0,0x0,0x0,0x0,0xe,0x0,0x8,0x0,0x0,0x0,0x0,0x0,0x0,0x0,0x0,0x0,0x4,0x0,0xe,0x0,0x0,0x0,0x1,0x0,0x0,0x0,0x1,0x0,0x0,0x0,0xe,0x0,0x0,0x0,0x4,0x0,0x0,0x0,0xd,0x0,0x0,0x0,0x6,0x0,0x0,0x0,0x5,0x0,0x0,0x0,0x5,0x0,0x0,0x0,0x9a,0xff,0xff,0xff,0x14,0x0,0x0,0x0,0x0,0x0,0x0,0x37,0x14,0x0,0x0,0x0,0x18,0x0,0x0,0x0,0x2,0x0,0x0,0x0,0x8a,0xff,0xff,0xff,0x0,0x0,0x0,0x2,0x1,0x0,0x0,0x0,0xd,0x0,0x0,0x0,0x1,0x0,0x0,0x0,0xc,0x0,0x0,0x0,0xca,0xff,0xff,0xff,0x14,0x0,0x0,0x0,0x0,0x0,0x0,0x8,0x10,0x0,0x0,0x0,0x14,0x0,0x0,0x0,0x1,0x0,0x0,0x0,0xc4,0xf9,0xff,0xff,0x1,0x0,0x0,0x0,0xc,0x0,0x0,0x0,0x3,0x0,0x0,0x0,0xb,0x0,0x0,0x0,0x1,0x0,0x0,0x0,0x3,0x0,0x0,0x0,0x0,0x0,0xe,0x0,0x1a,0x0,0x14,0x0,0x10,0x0,0xc,0x0,0xb,0x0,0x4,0x0,0xe,0x0,0x0,0x0,0x1c,0x0,0x0,0x0,0x0,0x0,0x0,0x8,0x1c,0x0,0x0,0x0,0x20,0x0,0x0,0x0,0x1,0x0,0x0,0x0,0x0,0x0,0x6,0x0,0x8,0x0,0x7,0x0,0x6,0x0,0x0,0x0,0x0,0x0,0x0,0x1,0x1,0x0,0x0,0x0,0xb,0x0,0x0,0x0,0x3,0x0,0x0,0x0,0xa,0x0,0x0,0x0,0x2,0x0,0x0,0x0,0x4,0x0,0x0,0x0,0x0,0x0,0xa,0x0,0xc,0x0,0x0,0x0,0x8,0x0,0x4,0x0,0xa,0x0,0x0,0x0,0x8,0x0,0x0,0x0,0xc,0x0,0x0,0x0,0x1,0x0,0x0,0x0,0xa,0x0,0x0,0x0,0x2,0x0,0x0,0x0,0x0,0x0,0x0,0x0,0x9,0x0,0x0,0x0,0x1,0x0,0x0,0x0,0x10,0x0,0x0,0x0,0x1,0x0,0x0,0x0,0x0,0x0,0x0,0x0,0x11,0x0,0x0,0x0,0x64,0x5,0x0,0x0,0xc,0x5,0x0,0x0,0xb4,0x4,0x0,0x0,0x78,0x4,0x0,0x0,0x3c,0x4,0x0,0x0,0xfc,0x3,0x0,0x0,0xa4,0x3,0x0,0x0,0x68,0x3,0x0,0x0,0x2c,0x3,0x0,0x0,0xec,0x2,0x0,0x0,0x88,0x2,0x0,0x0,0xe8,0x1,0x0,0x0,0x64,0x1,0x0,0x0,0x14,0x1,0x0,0x0,0xc0,0x0,0x0,0x0,0x68,0x0,0x0,0x0,0x4,0x0,0x0,0x0,0xf6,0xfa,0xff,0xff,0x0,0x0,0x0,0x1,0x14,0x0,0x0,0x0,0x20,0x0,0x0,0x0,0x20,0x0,0x0,0x0,0x11,0x0,0x0,0x0,0x38,0x0,0x0,0x0,0x3,0x0,0x0,0x0,0xff,0xff,0xff,0xff,0x10,0x0,0x0,0x0,0x1,0x0,0x0,0x0,0xe0,0xfa,0xff,0xff,0x1b,0x0,0x0,0x0,0x53,0x74,0x61,0x74,0x65,0x66,0x75,0x6c,0x50,0x61,0x72,0x74,0x69,0x74,0x69,0x6f,0x6e,0x65,0x64,0x43,0x61,0x6c,0x6c,0x5f,0x31,0x3a,0x30,0x0,0x3,0x0,0x0,0x0,0x1,0x0,0x0,0x0,0x10,0x0,0x0,0x0,0x1,0x0,0x0,0x0,0xaa,0xfc,0xff,0xff,0x0,0x0,0x0,0x1,0x14,0x0,0x0,0x0,0x14,0x0,0x0,0x0,0x10,0x0,0x0,0x0,0x0,0x0,0x0,0x2,0x34,0x0,0x0,0x0,0x30,0xfb,0xff,0xff,0x26,0x0,0x0,0x0,0x73,0x65,0x71,0x75,0x65,0x6e,0x74,0x69,0x61,0x6c,0x5f,0x31,0x5f,0x31,0x2f,0x72,0x65,0x73,0x68,0x61,0x70,0x65,0x5f,0x31,0x2f,0x52,0x65,0x73,0x68,0x61,0x70,0x65,0x2f,0x73,0x68,0x61,0x70,0x65,0x0,0x0,0x1,0x0,0x0,0x0,0x3,0x0,0x0,0x0,0xfe,0xfc,0xff,0xff,0x0,0x0,0x0,0x1,0x14,0x0,0x0,0x0,0x14,0x0,0x0,0x0,0xf,0x0,0x0,0x0,0x0,0x0,0x0,0x2,0x34,0x0,0x0,0x0,0x84,0xfb,0xff,0xff,0x26,0x0,0x0,0x0,0x73,0x65,0x71,0x75,0x65,0x6e,0x74,0x69,0x61,0x6c,0x5f,0x31,0x5f,0x31,0x2f,0x72,0x65,0x73,0x68,0x61,0x70,0x65,0x5f,0x31,0x2f,0x73,0x74,0x72,0x69,0x64,0x65,0x64,0x5f,0x73,0x6c,0x69,0x63,0x65,0x0,0x0,0x0,0x0,0x0,0x0,0x4e,0xfd,0xff,0xff,0x0,0x0,0x0,0x1,0x14,0x0,0x0,0x0,0x14,0x0,0x0,0x0,0xe,0x0,0x0,0x0,0x0,0x0,0x0,0x2,0x2c,0x0,0x0,0x0,0xd4,0xfb,0xff,0xff,0x1e,0x0,0x0,0x0,0x73,0x65,0x71,0x75,0x65,0x6e,0x74,0x69,0x61,0x6c,0x5f,0x31,0x5f,0x31,0x2f,0x72,0x65,0x73,0x68,0x61,0x70,0x65,0x5f,0x31,0x2f,0x53,0x68,0x61,0x70,0x65,0x0,0x0,0x1,0x0,0x0,0x0,0x2,0x0,0x0,0x0,0x46,0xfc,0xff,0xff,0x0,0x0,0x0,0x1,0x14,0x0,0x0,0x0,0x1c,0x0,0x0,0x0,0x1c,0x0,0x0,0x0,0xd,0x0,0x0,0x0,0x5c,0x0,0x0,0x0,0x2,0x0,0x0,0x0,0xff,0xff,0xff,0xff,0x10,0x0,0x0,0x0,0x2c,0xfc,0xff,0xff,0x40,0x0,0x0,0x0,0x73,0x65,0x71,0x75,0x65,0x6e,0x74,0x69,0x61,0x6c,0x5f,0x31,0x5f,0x31,0x2f,0x64,0x65,0x6e,0x73,0x65,0x5f,0x35,0x5f,0x31,0x2f,0x4d,0x61,0x74,0x4d,0x75,0x6c,0x3b,0x73,0x65,0x71,0x75,0x65,0x6e,0x74,0x69,0x61,0x6c,0x5f,0x31,0x5f,0x31,0x2f,0x64,0x65,0x6e,0x73,0x65,0x5f,0x35,0x5f,0x31,0x2f,0x42,0x69,0x61,0x73,0x41,0x64,0x64,0x0,0x0,0x0,0x0,0x2,0x0,0x0,0x0,0x1,0x0,0x0,0x0,0x10,0x0,0x0,0x0,0xc6,0xfc,0xff,0xff,0x0,0x0,0x0,0x1,0x14,0x0,0x0,0x0,0x1c,0x0,0x0,0x0,0x1c,0x0,0x0,0x0,0xc,0x0,0x0,0x0,0x78,0x0,0x0,0x0,0x2,0x0,0x0,0x0,0xff,0xff,0xff,0xff,0xc,0x0,0x0,0x0,0xac,0xfc,0xff,0xff,0x5e,0x0,0x0,0x0,0x73,0x65,0x71,0x75,0x65,0x6e,0x74,0x69,0x61,0x6c,0x5f,0x31,0x5f,0x31,0x2f,0x64,0x65,0x6e,0x73,0x65,0x5f,0x34,0x5f,0x31,0x2f,0x4d,0x61,0x74,0x4d,0x75,0x6c,0x3b,0x73,0x65,0x71,0x75,0x65,0x6e,0x74,0x69,0x61,0x6c,0x5f,0x31,0x5f,0x31,0x2f,0x64,0x65,0x6e,0x73,0x65,0x5f,0x34,0x5f,0x31,0x2f,0x52,0x65,0x6c,0x75,0x3b,0x73,0x65,0x71,0x75,0x65,0x6e,0x74,0x69,0x61,0x6c,0x5f,0x31,0x5f,0x31,0x2f,0x64,0x65,0x6e,0x73,0x65,0x5f,0x34,0x5f,0x31,0x2f,0x42,0x69,0x61,0x73,0x41,0x64,0x64,0x0,0x0,0x2,0x0,0x0,0x0,0x1,0x0,0x0,0x0,0xc,0x0,0x0,0x0,0x62,0xfd,0xff,0xff,0x0,0x0,0x0,0x1,0x14,0x0,0x0,0x0,0x1c,0x0,0x0,0x0,0x1c,0x0,0x0,0x0,0xb,0x0,0x0,0x0,0x3c,0x0,0x0,0x0,0x2,0x0,0x0,0x0,0xff,0xff,0xff,0xff,0x10,0x0,0x0,0x0,0x48,0xfd,0xff,0xff,0x20,0x0,0x0,0x0,0x73,0x65,0x71,0x75,0x65,0x6e,0x74,0x69,0x61,0x6c,0x5f,0x31,0x5f,0x31,0x2f,0x66,0x6c,0x61,0x74,0x74,0x65,0x6e,0x5f,0x31,0x2f,0x52,0x65,0x73,0x68,0x61,0x70,0x65,0x0,0x0,0x0,0x0,0x2,0x0,0x0,0x0,0x1,0x0,0x0,0x0,0x10,0x0,0x0,0x0,0x16,0xff,0xff,0xff,0x0,0x0,0x0,0x1,0x14,0x0,0x0,0x0,0x14,0x0,0x0,0x0,0xa,0x0,0x0,0x0,0x0,0x0,0x0,0x2,0x1c,0x0,0x0,0x0,0x9c,0xfd,0xff,0xff,0xf,0x0,0x0,0x0,0x61,0x72,0x69,0x74,0x68,0x2e,0x63,0x6f,0x6e,0x73,0x74,0x61,0x6e,0x74,0x38,0x0,0x1,0x0,0x0,0x0,0x2,0x0,0x0,0x0,0x52,0xff,0xff,0xff,0x0,0x0,0x0,0x1,0x14,0x0,0x0,0x0,0x14,0x0,0x0,0x0,0x9,0x0,0x0,0x0,0x0,0x0,0x0,0x2,0x1c,0x0,0x0,0x0,0xd8,0xfd,0xff,0xff,0xf,0x0,0x0,0x0,0x61,0x72,0x69,0x74,0x68,0x2e,0x63,0x6f,0x6e,0x73,0x74,0x61,0x6e,0x74,0x37,0x0,0x0,0x0,0x0,0x0,0x8a,0xff,0xff,0xff,0x0,0x0,0x0,0x1,0x14,0x0,0x0,0x0,0x14,0x0,0x0,0x0,0x6,0x0,0x0,0x0,0x0,0x0,0x0,0x2,0x1c,0x0,0x0,0x0,0x10,0xfe,0xff,0xff,0xf,0x0,0x0,0x0,0x61,0x72,0x69,0x74,0x68,0x2e,0x63,0x6f,0x6e,0x73,0x74,0x61,0x6e,0x74,0x36,0x0,0x0,0x0,0x0,0x0,0xc2,0xff,0xff,0xff,0x0,0x0,0x0,0x1,0x14,0x0,0x0,0x0,0x14,0x0,0x0,0x0,0x7,0x0,0x0,0x0,0x0,0x0,0x0,0x2,0x1c,0x0,0x0,0x0,0x48,0xfe,0xff,0xff,0xf,0x0,0x0,0x0,0x61,0x72,0x69,0x74,0x68,0x2e,0x63,0x6f,0x6e,0x73,0x74,0x61,0x6e,0x74,0x35,0x0,0x1,0x0,0x0,0x0,0x1,0x0,0x0,0x0,0x0,0x0,0x16,0x0,0x1c,0x0,0x18,0x0,0x17,0x0,0x10,0x0,0xc,0x0,0x8,0x0,0x0,0x0,0x0,0x0,0x0,0x0,0x7,0x0,0x16,0x0,0x0,0x0,0x0,0x0,0x0,0x1,0x14,0x0,0x0,0x0,0x14,0x0,0x0,0x0,0x6,0x0,0x0,0x0,0x0,0x0,0x0,0x2,0x1c,0x0,0x0,0x0,0x9c,0xfe,0xff,0xff,0xf,0x0,0x0,0x0,0x61,0x72,0x69,0x74,0x68,0x2e,0x63,0x6f,0x6e,0x73,0x74,0x61,0x6e,0x74,0x34,0x0,0x1,0x0,0x0,0x0,0x1,0x0,0x0,0x0,0x52,0xff,0xff,0xff,0x0,0x0,0x0,0x1,0x10,0x0,0x0,0x0,0x10,0x0,0x0,0x0,0x5,0x0,0x0,0x0,0x1c,0x0,0x0,0x0,0xd4,0xfe,0xff,0xff,0xf,0x0,0x0,0x0,0x61,0x72,0x69,0x74,0x68,0x2e,0x63,0x6f,0x6e,0x73,0x74,0x61,0x6e,0x74,0x33,0x0,0x1,0x0,0x0,0x0,0xc,0x0,0x0,0x0,0x8a,0xff,0xff,0xff,0x0,0x0,0x0,0x1,0x10,0x0,0x0,0x0,0x10,0x0,0x0,0x0,0x4,0x0,0x0,0x0,0x1c,0x0,0x0,0x0,0xc,0xff,0xff,0xff,0xf,0x0,0x0,0x0,0x61,0x72,0x69,0x74,0x68,0x2e,0x63,0x6f,0x6e,0x73,0x74,0x61,0x6e,0x74,0x32,0x0,0x1,0x0,0x0,0x0,0x10,0x0,0x0,0x0,0xc2,0xff,0xff,0xff,0x0,0x0,0x0,0x1,0x10,0x0,0x0,0x0,0x10,0x0,0x0,0x0,0x3,0x0,0x0,0x0,0x1c,0x0,0x0,0x0,0x44,0xff,0xff,0xff,0xf,0x0,0x0,0x0,0x61,0x72,0x69,0x74,0x68,0x2e,0x63,0x6f,0x6e,0x73,0x74,0x61,0x6e,0x74,0x31,0x0,0x2,0x0,0x0,0x0,0xc,0x0,0x0,0x0,0x10,0x0,0x0,0x0,0x0,0x0,0x16,0x0,0x18,0x0,0x14,0x0,0x0,0x0,0x10,0x0,0xc,0x0,0x8,0x0,0x0,0x0,0x0,0x0,0x0,0x0,0x7,0x0,0x16,0x0,0x0,0x0,0x0,0x0,0x0,0x1,0x10,0x0,0x0,0x0,0x10,0x0,0x0,0x0,0x2,0x0,0x0,0x0,0x1c,0x0,0x0,0x0,0x98,0xff,0xff,0xff,0xe,0x0,0x0,0x0,0x61,0x72,0x69,0x74,0x68,0x2e,0x63,0x6f,0x6e,0x73,0x74,0x61,0x6e,0x74,0x0,0x0,0x2,0x0,0x0,0x0,0x10,0x0,0x0,0x0,0xc,0x0,0x0,0x0,0x0,0x0,0x16,0x0,0x1c,0x0,0x18,0x0,0x0,0x0,0x14,0x0,0x10,0x0,0xc,0x0,0x0,0x0,0x0,0x0,0x8,0x0,0x7,0x0,0x16,0x0,0x0,0x0,0x0,0x0,0x0,0x1,0x14,0x0,0x0,0x0,0x24,0x0,0x0,0x0,0x24,0x0,0x0,0x0,0x1,0x0,0x0,0x0,0x44,0x0,0x0,0x0,0x3,0x0,0x0,0x0,0xff,0xff,0xff,0xff,0x10,0x0,0x0,0x0,0x1,0x0,0x0,0x0,0x4,0x0,0x4,0x0,0x4,0x0,0x0,0x0,0x21,0x0,0x0,0x0,0x73,0x65,0x72,0x76,0x69,0x6e,0x67,0x5f,0x64,0x65,0x66,0x61,0x75,0x6c,0x74,0x5f,0x6b,0x65,0x72,0x61,0x73,0x5f,0x74,0x65,0x6e,0x73,0x6f,0x72,0x5f,0x31,0x35,0x3a,0x30,0x0,0x0,0x0,0x3,0x0,0x0,0x0,0x1,0x0,0x0,0x0,0x10,0x0,0x0,0x0,0x1,0x0,0x0,0x0,0x5,0x0,0x0,0x0,0x50,0x0,0x0,0x0,0x34,0x0,0x0,0x0,0x24,0x0,0x0,0x0,0x14,0x0,0x0,0x0,0x4,0x0,0x0,0x0,0xd0,0xff,0xff,0xff,0x53,0x0,0x0,0x0,0x0,0x0,0x0,0x53,0xdc,0xff,0xff,0xff,0x2d,0x0,0x0,0x0,0x0,0x0,0x0,0x2d,0xe8,0xff,0xff,0xff,0x4d,0x0,0x0,0x0,0x0,0x0,0x0,0x4d,0xf4,0xff,0xff,0xff,0x9,0x0,0x0,0x0,0x0,0x0,0x0,0x9,0xc,0x0,0xc,0x0,0xb,0x0,0x0,0x0,0x0,0x0,0x4,0x0,0xc,0x0,0x0,0x0,0x16,0x0,0x0,0x0,0x0,0x0,0x0,0x16};
const int model_len = 4416;
